#include "model.h"

alignas(8) const unsigned char h_model[] = {
  0x1c, 0x00, 0x00, 0x00, 0x54, 0x46, 0x4c, 0x33, 0x14, 0x00, 0x20, 0x00,
  0x1c, 0x00, 0x18, 0x00, 0x14, 0x00, 0x10, 0x00, 0x0c, 0x00, 0x00, 0x00,
  0x08, 0x00, 0x04, 0x00, 0x14, 0x00, 0x00, 0x00, 0x1c, 0x00, 0x00, 0x00,
  0x98, 0x00, 0x00, 0x00, 0xf0, 0x00, 0x00, 0x00, 0x70, 0x06, 0x00, 0x00,
  0x80, 0x06, 0x00, 0x00, 0x7c, 0x0c, 0x00, 0x00, 0x03, 0x00, 0x00, 0x00,
  0x01, 0x00, 0x00, 0x00, 0x10, 0x00, 0x00, 0x00, 0x00, 0x00, 0x0a, 0x00,
  0x10, 0x00, 0x0c, 0x00, 0x08, 0x00, 0x04, 0x00, 0x0a, 0x00, 0x00, 0x00,
  0x0c, 0x00, 0x00, 0x00, 0x1c, 0x00, 0x00, 0x00, 0x3c, 0x00, 0x00, 0x00,
  0x0f, 0x00, 0x00, 0x00, 0x73, 0x65, 0x72, 0x76, 0x69, 0x6e, 0x67, 0x5f,
  0x64, 0x65, 0x66, 0x61, 0x75, 0x6c, 0x74, 0x00, 0x01, 0x00, 0x00, 0x00,
  0x04, 0x00, 0x00, 0x00, 0x90, 0xff, 0xff, 0xff, 0x0a, 0x00, 0x00, 0x00,
  0x04, 0x00, 0x00, 0x00, 0x08, 0x00, 0x00, 0x00, 0x64, 0x65, 0x6e, 0x73,
  0x65, 0x5f, 0x31, 0x37, 0x00, 0x00, 0x00, 0x00, 0x01, 0x00, 0x00, 0x00,
  0x04, 0x00, 0x00, 0x00, 0x76, 0xf9, 0xff, 0xff, 0x04, 0x00, 0x00, 0x00,
  0x0e, 0x00, 0x00, 0x00, 0x64, 0x65, 0x6e, 0x73, 0x65, 0x5f, 0x31, 0x35,
  0x5f, 0x69, 0x6e, 0x70, 0x75, 0x74, 0x00, 0x00, 0x02, 0x00, 0x00, 0x00,
  0x34, 0x00, 0x00, 0x00, 0x04, 0x00, 0x00, 0x00, 0xdc, 0xff, 0xff, 0xff,
  0x0d, 0x00, 0x00, 0x00, 0x04, 0x00, 0x00, 0x00, 0x13, 0x00, 0x00, 0x00,
  0x43, 0x4f, 0x4e, 0x56, 0x45, 0x52, 0x53, 0x49, 0x4f, 0x4e, 0x5f, 0x4d,
  0x45, 0x54, 0x41, 0x44, 0x41, 0x54, 0x41, 0x00, 0x08, 0x00, 0x0c, 0x00,
  0x08, 0x00, 0x04, 0x00, 0x08, 0x00, 0x00, 0x00, 0x0c, 0x00, 0x00, 0x00,
  0x04, 0x00, 0x00, 0x00, 0x13, 0x00, 0x00, 0x00, 0x6d, 0x69, 0x6e, 0x5f,
  0x72, 0x75, 0x6e, 0x74, 0x69, 0x6d, 0x65, 0x5f, 0x76, 0x65, 0x72, 0x73,
  0x69, 0x6f, 0x6e, 0x00, 0x0e, 0x00, 0x00, 0x00, 0x7c, 0x05, 0x00, 0x00,
  0x74, 0x05, 0x00, 0x00, 0x5c, 0x05, 0x00, 0x00, 0x2c, 0x05, 0x00, 0x00,
  0xdc, 0x04, 0x00, 0x00, 0x0c, 0x03, 0x00, 0x00, 0xfc, 0x00, 0x00, 0x00,
  0xac, 0x00, 0x00, 0x00, 0xa4, 0x00, 0x00, 0x00, 0x9c, 0x00, 0x00, 0x00,
  0x94, 0x00, 0x00, 0x00, 0x8c, 0x00, 0x00, 0x00, 0x6c, 0x00, 0x00, 0x00,
  0x04, 0x00, 0x00, 0x00, 0x2a, 0xfa, 0xff, 0xff, 0x04, 0x00, 0x00, 0x00,
  0x58, 0x00, 0x00, 0x00, 0x0c, 0x00, 0x00, 0x00, 0x08, 0x00, 0x0e, 0x00,
  0x08, 0x00, 0x04, 0x00, 0x08, 0x00, 0x00, 0x00, 0x10, 0x00, 0x00, 0x00,
  0x28, 0x00, 0x00, 0x00, 0x00, 0x00, 0x06, 0x00, 0x08, 0x00, 0x04, 0x00,
  0x06, 0x00, 0x00, 0x00, 0x04, 0x00, 0x00, 0x00, 0x01, 0x00, 0x00, 0x00,
  0xea, 0x03, 0x00, 0x00, 0x00, 0x00, 0x0a, 0x00, 0x10, 0x00, 0x0c, 0x00,
  0x08, 0x00, 0x04, 0x00, 0x0a, 0x00, 0x00, 0x00, 0x02, 0x00, 0x00, 0x00,
  0x02, 0x00, 0x00, 0x00, 0x04, 0x00, 0x00, 0x00, 0x06, 0x00, 0x00, 0x00,
  0x32, 0x2e, 0x31, 0x33, 0x2e, 0x30, 0x00, 0x00, 0x8e, 0xfa, 0xff, 0xff,
  0x04, 0x00, 0x00, 0x00, 0x10, 0x00, 0x00, 0x00, 0x31, 0x2e, 0x35, 0x2e,
  0x30, 0x00, 0x00, 0x00, 0x00, 0x00, 0x00, 0x00, 0x00, 0x00, 0x00, 0x00,
  0x60, 0xf5, 0xff, 0xff, 0x64, 0xf5, 0xff, 0xff, 0x68, 0xf5, 0xff, 0xff,
  0x6c, 0xf5, 0xff, 0xff, 0xba, 0xfa, 0xff, 0xff, 0x04, 0x00, 0x00, 0x00,
  0x40, 0x00, 0x00, 0x00, 0x9c, 0x77, 0x22, 0xbb, 0x20, 0x24, 0x93, 0x3d,
  0x3f, 0xc9, 0xaa, 0xbe, 0x79, 0x98, 0x36, 0xbf, 0xf9, 0xf9, 0x0a, 0xbe,
  0x30, 0x31, 0xf3, 0x3e, 0x0d, 0x1d, 0xda, 0xbe, 0x66, 0x86, 0x12, 0xbf,
  0xad, 0xa1, 0xb4, 0xbe, 0xbd, 0xd8, 0xa9, 0xbe, 0x4e, 0x9d, 0x8f, 0xbe,
  0x43, 0x6a, 0x3c, 0x3f, 0x11, 0x97, 0x0f, 0xbf, 0x9a, 0x55, 0xdb, 0x3d,
  0x78, 0x49, 0x21, 0x3f, 0xf5, 0x28, 0x19, 0xbd, 0x06, 0xfb, 0xff, 0xff,
  0x04, 0x00, 0x00, 0x00, 0x00, 0x02, 0x00, 0x00, 0xe5, 0x39, 0xa2, 0x3e,
  0xfb, 0x3f, 0x83, 0x3e, 0x0f, 0x0c, 0x7a, 0x3e, 0x22, 0x8e, 0xf8, 0x04,
  0xfd, 0x9e, 0x9a, 0x3e, 0xd2, 0xda, 0xb4, 0x3e, 0x8d, 0x21, 0x8f, 0x3e,
  0xed, 0x13, 0xc9, 0x3e, 0x24, 0xd9, 0xa9, 0x3e, 0xe2, 0x98, 0x8f, 0x3e,
  0xf6, 0x96, 0xaf, 0x3e, 0x34, 0xe5, 0x8d, 0x3e, 0x7a, 0xa6, 0xf8, 0x84,
  0xa4, 0x83, 0x8f, 0x3e, 0xdf, 0xc3, 0x7b, 0x3e, 0x51, 0x8c, 0xaa, 0x3e,
  0x89, 0x5f, 0xac, 0x3e, 0x4e, 0xff, 0x84, 0x3e, 0x1e, 0x2f, 0x7f, 0x3e,
  0x40, 0x27, 0xf9, 0x84, 0x89, 0x41, 0x8a, 0x3e, 0x97, 0x7a, 0xa9, 0x3e,
  0xd7, 0x3f, 0xa6, 0x3e, 0x72, 0xf5, 0xc5, 0x3e, 0x26, 0x8b, 0xc7, 0x3e,
  0x57, 0x0b, 0x8d, 0x3e, 0x74, 0x94, 0xd0, 0x3e, 0xb0, 0xb0, 0x89, 0x3e,
  0xf5, 0x1c, 0xf9, 0x84, 0xff, 0x32, 0x98, 0x3e, 0xda, 0xeb, 0x8c, 0x3e,
  0xdf, 0xa5, 0xd5, 0x3e, 0x5c, 0x1d, 0xf9, 0x84, 0x72, 0xde, 0xf8, 0x04,
  0xc6, 0x1f, 0xf9, 0x84, 0x6d, 0x8b, 0xf9, 0x84, 0x98, 0x9e, 0xf9, 0x04,
  0x95, 0x17, 0xf9, 0x04, 0xf1, 0x08, 0xf9, 0x04, 0x03, 0x89, 0xf9, 0x84,
  0xd6, 0xe5, 0xf8, 0x84, 0xf4, 0xa2, 0xf9, 0x04, 0x90, 0x91, 0xf9, 0x84,
  0x32, 0xdd, 0xf9, 0x84, 0xc5, 0x7e, 0xf9, 0x84, 0x2d, 0xd4, 0xf8, 0x84,
  0xf1, 0x08, 0xf9, 0x04, 0xf2, 0x14, 0xf9, 0x84, 0x61, 0xac, 0xf8, 0x04,
  0x92, 0x9e, 0xf8, 0x84, 0x94, 0x6c, 0xf9, 0x84, 0xfe, 0x5b, 0xf9, 0x84,
  0xb6, 0xa6, 0xf8, 0x04, 0x36, 0x6d, 0xf9, 0x84, 0x74, 0xd0, 0xf8, 0x84,
  0x40, 0x27, 0xf9, 0x04, 0x53, 0x29, 0xf9, 0x84, 0x65, 0x6c, 0xf8, 0x04,
  0xe2, 0x62, 0xf9, 0x04, 0xb6, 0x9b, 0xf8, 0x84, 0x38, 0x66, 0xf9, 0x04,
  0xe5, 0xf0, 0xf8, 0x04, 0x37, 0x2c, 0xf9, 0x04, 0x37, 0xb2, 0xf9, 0x84,
  0x97, 0xbd, 0xaf, 0x3e, 0x5e, 0x2a, 0x84, 0x3e, 0x84, 0x3f, 0x90, 0x3e,
  0xa4, 0x68, 0xf9, 0x84, 0x82, 0xa9, 0x81, 0x3e, 0x55, 0xe7, 0xcb, 0x3e,
  0x47, 0x69, 0xaa, 0x3e, 0x56, 0xbf, 0xbe, 0x3e, 0xb9, 0x2f, 0xd5, 0x3e,
  0xd6, 0x22, 0x97, 0x3e, 0x56, 0x2b, 0xd5, 0x3e, 0xba, 0x89, 0x99, 0x3e,
  0x2e, 0xcf, 0xf8, 0x84, 0xdd, 0x9a, 0xad, 0x3e, 0xde, 0x45, 0x95, 0x3e,
  0x91, 0x96, 0xb9, 0x3e, 0x79, 0x3f, 0x9b, 0x3e, 0x1d, 0x01, 0x72, 0x3e,
  0x6a, 0x0d, 0x63, 0x3e, 0x73, 0x00, 0xf9, 0x04, 0x23, 0x1d, 0x99, 0x3e,
  0x6f, 0xb3, 0x9f, 0x3e, 0x29, 0xbe, 0x91, 0x3e, 0x62, 0x4f, 0xb3, 0x3e,
  0xed, 0x51, 0xb9, 0x3e, 0xe0, 0x85, 0x8c, 0x3e, 0x04, 0x89, 0xc6, 0x3e,
  0x8d, 0x4c, 0x8a, 0x3e, 0x40, 0xa8, 0xf8, 0x84, 0x07, 0xe4, 0x84, 0x3e,
  0x37, 0xa6, 0x74, 0x3e, 0x2e, 0x12, 0xc6, 0x3e, 0xd3, 0x49, 0xf9, 0x84,
  0xb4, 0x07, 0xf9, 0x84, 0x65, 0x7b, 0xf9, 0x84, 0x31, 0xb8, 0xf8, 0x84,
  0xcf, 0x42, 0xf9, 0x84, 0x2b, 0xfd, 0xf8, 0x04, 0xce, 0x05, 0xf9, 0x04,
  0x6d, 0x74, 0xf9, 0x84, 0x55, 0x85, 0xf8, 0x84, 0x7b, 0x54, 0xf9, 0x84,
  0xeb, 0x71, 0xf9, 0x84, 0xf0, 0x98, 0xf9, 0x84, 0x42, 0x97, 0xf8, 0x84,
  0x82, 0xa0, 0xf8, 0x04, 0x72, 0x82, 0xf8, 0x04, 0x29, 0xf7, 0xf9, 0x84,
  0xe4, 0xd2, 0xf8, 0x04, 0xa5, 0xba, 0xf8, 0x84, 0x93, 0xce, 0xf8, 0x84,
  0x00, 0x12, 0xf9, 0x04, 0xe9, 0xf7, 0xf9, 0x84, 0x1e, 0xc4, 0xf9, 0x84,
  0xa0, 0xfd, 0xf9, 0x84, 0x9c, 0xbb, 0xf8, 0x04, 0x2c, 0xef, 0xf8, 0x84,
  0x52, 0x9f, 0xf8, 0x04, 0x7f, 0x11, 0xf9, 0x04, 0xe6, 0xe0, 0xf8, 0x84,
  0x7b, 0xe1, 0xf8, 0x04, 0x38, 0x61, 0xf9, 0x84, 0x90, 0xc4, 0xf8, 0x84,
  0xfb, 0xad, 0xf8, 0x84, 0x12, 0xfd, 0xff, 0xff, 0x04, 0x00, 0x00, 0x00,
  0xc0, 0x01, 0x00, 0x00, 0x77, 0x68, 0xce, 0xbd, 0x6b, 0x6d, 0x92, 0xbe,
  0x85, 0x65, 0x96, 0x3e, 0xbd, 0x9b, 0x34, 0x3d, 0x12, 0xfa, 0x8d, 0x3d,
  0x7b, 0x78, 0x86, 0xbe, 0xc4, 0x55, 0x7c, 0xbe, 0xf0, 0x7e, 0xcb, 0xbd,
  0x1c, 0x59, 0x72, 0xbd, 0x03, 0x35, 0xe5, 0xbc, 0x7e, 0xba, 0x19, 0xbe,
  0x85, 0x56, 0xd5, 0x3b, 0x5b, 0x91, 0x0d, 0xbd, 0x5f, 0xf7, 0x88, 0x3d,
  0xda, 0x16, 0xce, 0xbd, 0x6e, 0x0a, 0xd8, 0xbd, 0xae, 0xaa, 0x7a, 0x3b,
  0x66, 0x8e, 0x9e, 0xbd, 0x60, 0x73, 0x6b, 0x3b, 0x38, 0xe6, 0x0a, 0xbd,
  0x29, 0x4e, 0x2c, 0xbd, 0xfb, 0xad, 0xf8, 0x84, 0xf3, 0x4b, 0xf9, 0x84,
  0xa5, 0xd6, 0xf9, 0x04, 0x91, 0xbf, 0xf9, 0x84, 0xf1, 0x08, 0xf9, 0x84,
  0xef, 0xb4, 0xf8, 0x04, 0x4f, 0xe1, 0xf9, 0x04, 0x12, 0x8b, 0xee, 0xbd,
  0xf1, 0x0c, 0x7a, 0x3e, 0x26, 0x29, 0xf9, 0x3c, 0x31, 0x43, 0x86, 0xbe,
  0x56, 0x31, 0x45, 0x3d, 0xe7, 0x48, 0x15, 0x3d, 0xa9, 0x12, 0xac, 0xbe,
  0xa9, 0x5d, 0x7d, 0x3d, 0x3f, 0x8e, 0xd9, 0xbe, 0x99, 0xb4, 0xd3, 0xbd,
  0x09, 0x1a, 0xa1, 0xbd, 0xf7, 0x0e, 0xf3, 0x3c, 0x82, 0xd2, 0x45, 0xbe,
  0xc9, 0xc4, 0xc2, 0xbd, 0x20, 0x02, 0x95, 0xbc, 0xb5, 0x48, 0x04, 0xbe,
  0xa9, 0xd1, 0x4d, 0xbe, 0xb7, 0x91, 0x13, 0xbe, 0x2d, 0x7b, 0xcb, 0xbb,
  0xff, 0xf8, 0x88, 0x3d, 0x51, 0x25, 0x13, 0x3e, 0xd4, 0xd1, 0x88, 0xbe,
  0x0f, 0xf3, 0x37, 0xbf, 0x02, 0x8b, 0xce, 0x3d, 0xd5, 0x42, 0xc0, 0x3e,
  0x10, 0x99, 0x18, 0x3c, 0xbf, 0xac, 0x5c, 0x3e, 0x26, 0x8b, 0x0d, 0x3e,
  0x76, 0xeb, 0x00, 0x3d, 0x0d, 0x0b, 0x2c, 0xbe, 0x99, 0xc9, 0x69, 0xbe,
  0xcc, 0x35, 0x17, 0xbe, 0x00, 0x71, 0x66, 0xbc, 0x6f, 0x89, 0x16, 0x3d,
  0x3a, 0xd8, 0x9e, 0x3d, 0x94, 0x6d, 0xda, 0xbd, 0xe0, 0xea, 0x6d, 0xbd,
  0xb6, 0x8e, 0xf0, 0xbc, 0xb7, 0x7e, 0xe0, 0xbd, 0xa4, 0x93, 0xa4, 0xbc,
  0xa1, 0xec, 0x08, 0xbd, 0x85, 0x12, 0x7b, 0xbc, 0x31, 0x70, 0xfd, 0xba,
  0x86, 0x05, 0x3a, 0xbe, 0x63, 0xdd, 0x45, 0xbe, 0x06, 0x64, 0x18, 0xbe,
  0x9c, 0xed, 0x53, 0xbd, 0x0c, 0x79, 0x46, 0x3d, 0x3c, 0xcf, 0xec, 0x3d,
  0x77, 0xde, 0x00, 0xbe, 0x8e, 0x44, 0xbb, 0xbd, 0xaa, 0x40, 0x23, 0xbc,
  0x0d, 0x93, 0x96, 0xbd, 0x19, 0xcc, 0x6c, 0xbc, 0xda, 0x13, 0x12, 0xbc,
  0x42, 0xca, 0x33, 0xbd, 0x61, 0xac, 0xf8, 0x84, 0xff, 0x73, 0xf9, 0x84,
  0x98, 0x7b, 0xf8, 0x84, 0x78, 0x06, 0xf9, 0x04, 0x60, 0xb0, 0xf8, 0x04,
  0x73, 0x69, 0xf9, 0x04, 0xf4, 0xf9, 0xf9, 0x84, 0xf5, 0x6e, 0xe6, 0x3d,
  0x64, 0x7d, 0x0f, 0xbf, 0x14, 0xc2, 0xd1, 0x3d, 0x0c, 0x3b, 0x9e, 0x3d,
  0xf0, 0x12, 0x60, 0x3e, 0x75, 0x83, 0xca, 0x3e, 0x50, 0xa4, 0x45, 0xbf,
  0xb0, 0x0f, 0xba, 0xbd, 0xb7, 0xcc, 0xbb, 0xbd, 0x6e, 0xb8, 0x91, 0xbc,
  0x6c, 0xa7, 0xb6, 0xbd, 0x1e, 0xcb, 0x22, 0xbc, 0xce, 0x1c, 0xc9, 0xbc,
  0x31, 0xde, 0x30, 0xbd, 0x61, 0xb9, 0xc7, 0xbd, 0x72, 0x1b, 0x47, 0xbf,
  0x64, 0x01, 0xab, 0xbe, 0x24, 0x81, 0x64, 0x3d, 0x8e, 0xdc, 0x5a, 0xbb,
  0x48, 0x4d, 0x56, 0xbc, 0xc7, 0xf0, 0x09, 0x3f, 0xde, 0xfe, 0xff, 0xff,
  0x04, 0x00, 0x00, 0x00, 0x40, 0x00, 0x00, 0x00, 0x54, 0xe7, 0x20, 0xbc,
  0x65, 0x5e, 0x38, 0x3e, 0x81, 0x24, 0x79, 0x3e, 0x9f, 0x24, 0x9d, 0xbd,
  0xc5, 0x5b, 0x9f, 0x3d, 0xee, 0x85, 0x3d, 0x3e, 0x07, 0xe4, 0x31, 0x3e,
  0xba, 0x81, 0x90, 0xbe, 0xa2, 0x84, 0x11, 0x3e, 0x21, 0x4a, 0x95, 0x3e,
  0xfc, 0xcb, 0x27, 0x3e, 0xb9, 0xe3, 0x85, 0x3e, 0x6b, 0x49, 0x90, 0xbc,
  0x2e, 0xcb, 0x41, 0xbf, 0x36, 0xe6, 0x82, 0x3e, 0x2c, 0x21, 0x92, 0xbe,
  0x2a, 0xff, 0xff, 0xff, 0x04, 0x00, 0x00, 0x00, 0x20, 0x00, 0x00, 0x00,
  0x2c, 0x6d, 0xab, 0xbe, 0xda, 0x80, 0x96, 0xbe, 0x88, 0x6b, 0xd4, 0xbc,
  0x31, 0xa4, 0x2f, 0xbd, 0x76, 0xcc, 0x99, 0xbe, 0x67, 0x63, 0x9e, 0xbe,
  0xa6, 0xc5, 0xed, 0xbc, 0xbc, 0xef, 0xbf, 0xbc, 0x56, 0xff, 0xff, 0xff,
  0x04, 0x00, 0x00, 0x00, 0x08, 0x00, 0x00, 0x00, 0xf9, 0x87, 0xfd, 0x3e,
  0xf0, 0x87, 0xfd, 0xbe, 0x20, 0xfa, 0xff, 0xff, 0x24, 0xfa, 0xff, 0xff,
  0x0f, 0x00, 0x00, 0x00, 0x4d, 0x4c, 0x49, 0x52, 0x20, 0x43, 0x6f, 0x6e,
  0x76, 0x65, 0x72, 0x74, 0x65, 0x64, 0x2e, 0x00, 0x01, 0x00, 0x00, 0x00,
  0x14, 0x00, 0x00, 0x00, 0x00, 0x00, 0x0e, 0x00, 0x18, 0x00, 0x14, 0x00,
  0x10, 0x00, 0x0c, 0x00, 0x08, 0x00, 0x04, 0x00, 0x0e, 0x00, 0x00, 0x00,
  0x14, 0x00, 0x00, 0x00, 0x1c, 0x00, 0x00, 0x00, 0x24, 0x01, 0x00, 0x00,
  0x28, 0x01, 0x00, 0x00, 0x2c, 0x01, 0x00, 0x00, 0x04, 0x00, 0x00, 0x00,
  0x6d, 0x61, 0x69, 0x6e, 0x00, 0x00, 0x00, 0x00, 0x04, 0x00, 0x00, 0x00,
  0xcc, 0x00, 0x00, 0x00, 0x84, 0x00, 0x00, 0x00, 0x50, 0x00, 0x00, 0x00,
  0x14, 0x00, 0x00, 0x00, 0x00, 0x00, 0x0e, 0x00, 0x1a, 0x00, 0x14, 0x00,
  0x10, 0x00, 0x0c, 0x00, 0x0b, 0x00, 0x04, 0x00, 0x0e, 0x00, 0x00, 0x00,
  0x1c, 0x00, 0x00, 0x00, 0x00, 0x00, 0x00, 0x09, 0x1c, 0x00, 0x00, 0x00,
  0x20, 0x00, 0x00, 0x00, 0x01, 0x00, 0x00, 0x00, 0x00, 0x00, 0x06, 0x00,
  0x08, 0x00, 0x04, 0x00, 0x06, 0x00, 0x00, 0x00, 0x00, 0x00, 0x80, 0x3f,
  0x01, 0x00, 0x00, 0x00, 0x0a, 0x00, 0x00, 0x00, 0x01, 0x00, 0x00, 0x00,
  0x09, 0x00, 0x00, 0x00, 0x9a, 0xff, 0xff, 0xff, 0x10, 0x00, 0x00, 0x00,
  0x00, 0x00, 0x00, 0x08, 0x0c, 0x00, 0x00, 0x00, 0x10, 0x00, 0x00, 0x00,
  0xe8, 0xfa, 0xff, 0xff, 0x01, 0x00, 0x00, 0x00, 0x09, 0x00, 0x00, 0x00,
  0x03, 0x00, 0x00, 0x00, 0x08, 0x00, 0x00, 0x00, 0x06, 0x00, 0x00, 0x00,
  0x01, 0x00, 0x00, 0x00, 0xca, 0xff, 0xff, 0xff, 0x10, 0x00, 0x00, 0x00,
  0x00, 0x00, 0x00, 0x08, 0x10, 0x00, 0x00, 0x00, 0x14, 0x00, 0x00, 0x00,
  0xba, 0xff, 0xff, 0xff, 0x00, 0x00, 0x00, 0x01, 0x01, 0x00, 0x00, 0x00,
  0x08, 0x00, 0x00, 0x00, 0x03, 0x00, 0x00, 0x00, 0x07, 0x00, 0x00, 0x00,
  0x05, 0x00, 0x00, 0x00, 0x02, 0x00, 0x00, 0x00, 0x00, 0x00, 0x0e, 0x00,
  0x16, 0x00, 0x00, 0x00, 0x10, 0x00, 0x0c, 0x00, 0x0b, 0x00, 0x04, 0x00,
  0x0e, 0x00, 0x00, 0x00, 0x18, 0x00, 0x00, 0x00, 0x00, 0x00, 0x00, 0x08,
  0x18, 0x00, 0x00, 0x00, 0x1c, 0x00, 0x00, 0x00, 0x00, 0x00, 0x06, 0x00,
  0x08, 0x00, 0x07, 0x00, 0x06, 0x00, 0x00, 0x00, 0x00, 0x00, 0x00, 0x01,
  0x01, 0x00, 0x00, 0x00, 0x07, 0x00, 0x00, 0x00, 0x03, 0x00, 0x00, 0x00,
  0x00, 0x00, 0x00, 0x00, 0x04, 0x00, 0x00, 0x00, 0x03, 0x00, 0x00, 0x00,
  0x01, 0x00, 0x00, 0x00, 0x0a, 0x00, 0x00, 0x00, 0x01, 0x00, 0x00, 0x00,
  0x00, 0x00, 0x00, 0x00, 0x0b, 0x00, 0x00, 0x00, 0x40, 0x04, 0x00, 0x00,
  0xcc, 0x03, 0x00, 0x00, 0x58, 0x03, 0x00, 0x00, 0xfc, 0x02, 0x00, 0x00,
  0xac, 0x02, 0x00, 0x00, 0x5c, 0x02, 0x00, 0x00, 0x0c, 0x02, 0x00, 0x00,
  0x74, 0x01, 0x00, 0x00, 0xdc, 0x00, 0x00, 0x00, 0x60, 0x00, 0x00, 0x00,
  0x04, 0x00, 0x00, 0x00, 0x02, 0xfc, 0xff, 0xff, 0x00, 0x00, 0x00, 0x01,
  0x14, 0x00, 0x00, 0x00, 0x1c, 0x00, 0x00, 0x00, 0x1c, 0x00, 0x00, 0x00,
  0x0b, 0x00, 0x00, 0x00, 0x34, 0x00, 0x00, 0x00, 0x02, 0x00, 0x00, 0x00,
  0xff, 0xff, 0xff, 0xff, 0x02, 0x00, 0x00, 0x00, 0xec, 0xfb, 0xff, 0xff,
  0x19, 0x00, 0x00, 0x00, 0x53, 0x74, 0x61, 0x74, 0x65, 0x66, 0x75, 0x6c,
  0x50, 0x61, 0x72, 0x74, 0x69, 0x74, 0x69, 0x6f, 0x6e, 0x65, 0x64, 0x43,
  0x61, 0x6c, 0x6c, 0x3a, 0x30, 0x00, 0x00, 0x00, 0x02, 0x00, 0x00, 0x00,
  0x01, 0x00, 0x00, 0x00, 0x02, 0x00, 0x00, 0x00, 0x5a, 0xfc, 0xff, 0xff,
  0x00, 0x00, 0x00, 0x01, 0x14, 0x00, 0x00, 0x00, 0x1c, 0x00, 0x00, 0x00,
  0x1c, 0x00, 0x00, 0x00, 0x0a, 0x00, 0x00, 0x00, 0x54, 0x00, 0x00, 0x00,
  0x02, 0x00, 0x00, 0x00, 0xff, 0xff, 0xff, 0xff, 0x02, 0x00, 0x00, 0x00,
  0x44, 0xfc, 0xff, 0xff, 0x3a, 0x00, 0x00, 0x00, 0x73, 0x65, 0x71, 0x75,
  0x65, 0x6e, 0x74, 0x69, 0x61, 0x6c, 0x5f, 0x35, 0x2f, 0x64, 0x65, 0x6e,
  0x73, 0x65, 0x5f, 0x31, 0x37, 0x2f, 0x4d, 0x61, 0x74, 0x4d, 0x75, 0x6c,
  0x3b, 0x73, 0x65, 0x71, 0x75, 0x65, 0x6e, 0x74, 0x69, 0x61, 0x6c, 0x5f,
  0x35, 0x2f, 0x64, 0x65, 0x6e, 0x73, 0x65, 0x5f, 0x31, 0x37, 0x2f, 0x42,
  0x69, 0x61, 0x73, 0x41, 0x64, 0x64, 0x00, 0x00, 0x02, 0x00, 0x00, 0x00,
  0x01, 0x00, 0x00, 0x00, 0x02, 0x00, 0x00, 0x00, 0xd2, 0xfc, 0xff, 0xff,
  0x00, 0x00, 0x00, 0x01, 0x14, 0x00, 0x00, 0x00, 0x1c, 0x00, 0x00, 0x00,
  0x1c, 0x00, 0x00, 0x00, 0x09, 0x00, 0x00, 0x00, 0x70, 0x00, 0x00, 0x00,
  0x02, 0x00, 0x00, 0x00, 0xff, 0xff, 0xff, 0xff, 0x08, 0x00, 0x00, 0x00,
  0xbc, 0xfc, 0xff, 0xff, 0x55, 0x00, 0x00, 0x00, 0x73, 0x65, 0x71, 0x75,
  0x65, 0x6e, 0x74, 0x69, 0x61, 0x6c, 0x5f, 0x35, 0x2f, 0x64, 0x65, 0x6e,
  0x73, 0x65, 0x5f, 0x31, 0x36, 0x2f, 0x4d, 0x61, 0x74, 0x4d, 0x75, 0x6c,
  0x3b, 0x73, 0x65, 0x71, 0x75, 0x65, 0x6e, 0x74, 0x69, 0x61, 0x6c, 0x5f,
  0x35, 0x2f, 0x64, 0x65, 0x6e, 0x73, 0x65, 0x5f, 0x31, 0x36, 0x2f, 0x52,
  0x65, 0x6c, 0x75, 0x3b, 0x73, 0x65, 0x71, 0x75, 0x65, 0x6e, 0x74, 0x69,
  0x61, 0x6c, 0x5f, 0x35, 0x2f, 0x64, 0x65, 0x6e, 0x73, 0x65, 0x5f, 0x31,
  0x36, 0x2f, 0x42, 0x69, 0x61, 0x73, 0x41, 0x64, 0x64, 0x00, 0x00, 0x00,
  0x02, 0x00, 0x00, 0x00, 0x01, 0x00, 0x00, 0x00, 0x08, 0x00, 0x00, 0x00,
  0x66, 0xfd, 0xff, 0xff, 0x00, 0x00, 0x00, 0x01, 0x14, 0x00, 0x00, 0x00,
  0x1c, 0x00, 0x00, 0x00, 0x1c, 0x00, 0x00, 0x00, 0x08, 0x00, 0x00, 0x00,
  0x70, 0x00, 0x00, 0x00, 0x02, 0x00, 0x00, 0x00, 0xff, 0xff, 0xff, 0xff,
  0x10, 0x00, 0x00, 0x00, 0x50, 0xfd, 0xff, 0xff, 0x55, 0x00, 0x00, 0x00,
  0x73, 0x65, 0x71, 0x75, 0x65, 0x6e, 0x74, 0x69, 0x61, 0x6c, 0x5f, 0x35,
  0x2f, 0x64, 0x65, 0x6e, 0x73, 0x65, 0x5f, 0x31, 0x35, 0x2f, 0x4d, 0x61,
  0x74, 0x4d, 0x75, 0x6c, 0x3b, 0x73, 0x65, 0x71, 0x75, 0x65, 0x6e, 0x74,
  0x69, 0x61, 0x6c, 0x5f, 0x35, 0x2f, 0x64, 0x65, 0x6e, 0x73, 0x65, 0x5f,
  0x31, 0x35, 0x2f, 0x52, 0x65, 0x6c, 0x75, 0x3b, 0x73, 0x65, 0x71, 0x75,
  0x65, 0x6e, 0x74, 0x69, 0x61, 0x6c, 0x5f, 0x35, 0x2f, 0x64, 0x65, 0x6e,
  0x73, 0x65, 0x5f, 0x31, 0x35, 0x2f, 0x42, 0x69, 0x61, 0x73, 0x41, 0x64,
  0x64, 0x00, 0x00, 0x00, 0x02, 0x00, 0x00, 0x00, 0x01, 0x00, 0x00, 0x00,
  0x10, 0x00, 0x00, 0x00, 0x6a, 0xfe, 0xff, 0xff, 0x00, 0x00, 0x00, 0x01,
  0x10, 0x00, 0x00, 0x00, 0x10, 0x00, 0x00, 0x00, 0x07, 0x00, 0x00, 0x00,
  0x2c, 0x00, 0x00, 0x00, 0xd4, 0xfd, 0xff, 0xff, 0x1c, 0x00, 0x00, 0x00,
  0x73, 0x65, 0x71, 0x75, 0x65, 0x6e, 0x74, 0x69, 0x61, 0x6c, 0x5f, 0x35,
  0x2f, 0x64, 0x65, 0x6e, 0x73, 0x65, 0x5f, 0x31, 0x37, 0x2f, 0x4d, 0x61,
  0x74, 0x4d, 0x75, 0x6c, 0x00, 0x00, 0x00, 0x00, 0x02, 0x00, 0x00, 0x00,
  0x02, 0x00, 0x00, 0x00, 0x08, 0x00, 0x00, 0x00, 0xb6, 0xfe, 0xff, 0xff,
  0x00, 0x00, 0x00, 0x01, 0x10, 0x00, 0x00, 0x00, 0x10, 0x00, 0x00, 0x00,
  0x06, 0x00, 0x00, 0x00, 0x2c, 0x00, 0x00, 0x00, 0x20, 0xfe, 0xff, 0xff,
  0x1c, 0x00, 0x00, 0x00, 0x73, 0x65, 0x71, 0x75, 0x65, 0x6e, 0x74, 0x69,
  0x61, 0x6c, 0x5f, 0x35, 0x2f, 0x64, 0x65, 0x6e, 0x73, 0x65, 0x5f, 0x31,
  0x36, 0x2f, 0x4d, 0x61, 0x74, 0x4d, 0x75, 0x6c, 0x00, 0x00, 0x00, 0x00,
  0x02, 0x00, 0x00, 0x00, 0x08, 0x00, 0x00, 0x00, 0x10, 0x00, 0x00, 0x00,
  0x02, 0xff, 0xff, 0xff, 0x00, 0x00, 0x00, 0x01, 0x10, 0x00, 0x00, 0x00,
  0x10, 0x00, 0x00, 0x00, 0x05, 0x00, 0x00, 0x00, 0x2c, 0x00, 0x00, 0x00,
  0x6c, 0xfe, 0xff, 0xff, 0x1c, 0x00, 0x00, 0x00, 0x73, 0x65, 0x71, 0x75,
  0x65, 0x6e, 0x74, 0x69, 0x61, 0x6c, 0x5f, 0x35, 0x2f, 0x64, 0x65, 0x6e,
  0x73, 0x65, 0x5f, 0x31, 0x35, 0x2f, 0x4d, 0x61, 0x74, 0x4d, 0x75, 0x6c,
  0x00, 0x00, 0x00, 0x00, 0x02, 0x00, 0x00, 0x00, 0x10, 0x00, 0x00, 0x00,
  0x07, 0x00, 0x00, 0x00, 0x4e, 0xff, 0xff, 0xff, 0x00, 0x00, 0x00, 0x01,
  0x10, 0x00, 0x00, 0x00, 0x10, 0x00, 0x00, 0x00, 0x04, 0x00, 0x00, 0x00,
  0x3c, 0x00, 0x00, 0x00, 0xb8, 0xfe, 0xff, 0xff, 0x2c, 0x00, 0x00, 0x00,
  0x73, 0x65, 0x71, 0x75, 0x65, 0x6e, 0x74, 0x69, 0x61, 0x6c, 0x5f, 0x35,
  0x2f, 0x64, 0x65, 0x6e, 0x73, 0x65, 0x5f, 0x31, 0x35, 0x2f, 0x42, 0x69,
  0x61, 0x73, 0x41, 0x64, 0x64, 0x2f, 0x52, 0x65, 0x61, 0x64, 0x56, 0x61,
  0x72, 0x69, 0x61, 0x62, 0x6c, 0x65, 0x4f, 0x70, 0x00, 0x00, 0x00, 0x00,
  0x01, 0x00, 0x00, 0x00, 0x10, 0x00, 0x00, 0x00, 0xa6, 0xff, 0xff, 0xff,
  0x00, 0x00, 0x00, 0x01, 0x10, 0x00, 0x00, 0x00, 0x10, 0x00, 0x00, 0x00,
  0x03, 0x00, 0x00, 0x00, 0x3c, 0x00, 0x00, 0x00, 0x10, 0xff, 0xff, 0xff,
  0x2c, 0x00, 0x00, 0x00, 0x73, 0x65, 0x71, 0x75, 0x65, 0x6e, 0x74, 0x69,
  0x61, 0x6c, 0x5f, 0x35, 0x2f, 0x64, 0x65, 0x6e, 0x73, 0x65, 0x5f, 0x31,
  0x36, 0x2f, 0x42, 0x69, 0x61, 0x73, 0x41, 0x64, 0x64, 0x2f, 0x52, 0x65,
  0x61, 0x64, 0x56, 0x61, 0x72, 0x69, 0x61, 0x62, 0x6c, 0x65, 0x4f, 0x70,
  0x00, 0x00, 0x00, 0x00, 0x01, 0x00, 0x00, 0x00, 0x08, 0x00, 0x00, 0x00,
  0x00, 0x00, 0x16, 0x00, 0x18, 0x00, 0x14, 0x00, 0x00, 0x00, 0x10, 0x00,
  0x0c, 0x00, 0x08, 0x00, 0x00, 0x00, 0x00, 0x00, 0x00, 0x00, 0x07, 0x00,
  0x16, 0x00, 0x00, 0x00, 0x00, 0x00, 0x00, 0x01, 0x10, 0x00, 0x00, 0x00,
  0x10, 0x00, 0x00, 0x00, 0x02, 0x00, 0x00, 0x00, 0x3c, 0x00, 0x00, 0x00,
  0x80, 0xff, 0xff, 0xff, 0x2c, 0x00, 0x00, 0x00, 0x73, 0x65, 0x71, 0x75,
  0x65, 0x6e, 0x74, 0x69, 0x61, 0x6c, 0x5f, 0x35, 0x2f, 0x64, 0x65, 0x6e,
  0x73, 0x65, 0x5f, 0x31, 0x37, 0x2f, 0x42, 0x69, 0x61, 0x73, 0x41, 0x64,
  0x64, 0x2f, 0x52, 0x65, 0x61, 0x64, 0x56, 0x61, 0x72, 0x69, 0x61, 0x62,
  0x6c, 0x65, 0x4f, 0x70, 0x00, 0x00, 0x00, 0x00, 0x01, 0x00, 0x00, 0x00,
  0x02, 0x00, 0x00, 0x00, 0x00, 0x00, 0x16, 0x00, 0x1c, 0x00, 0x18, 0x00,
  0x00, 0x00, 0x14, 0x00, 0x10, 0x00, 0x0c, 0x00, 0x00, 0x00, 0x00, 0x00,
  0x08, 0x00, 0x07, 0x00, 0x16, 0x00, 0x00, 0x00, 0x00, 0x00, 0x00, 0x01,
  0x14, 0x00, 0x00, 0x00, 0x20, 0x00, 0x00, 0x00, 0x20, 0x00, 0x00, 0x00,
  0x01, 0x00, 0x00, 0x00, 0x40, 0x00, 0x00, 0x00, 0x02, 0x00, 0x00, 0x00,
  0xff, 0xff, 0xff, 0xff, 0x07, 0x00, 0x00, 0x00, 0x04, 0x00, 0x04, 0x00,
  0x04, 0x00, 0x00, 0x00, 0x20, 0x00, 0x00, 0x00, 0x73, 0x65, 0x72, 0x76,
  0x69, 0x6e, 0x67, 0x5f, 0x64, 0x65, 0x66, 0x61, 0x75, 0x6c, 0x74, 0x5f,
  0x64, 0x65, 0x6e, 0x73, 0x65, 0x5f, 0x31, 0x35, 0x5f, 0x69, 0x6e, 0x70,
  0x75, 0x74, 0x3a, 0x30, 0x00, 0x00, 0x00, 0x00, 0x02, 0x00, 0x00, 0x00,
  0x01, 0x00, 0x00, 0x00, 0x07, 0x00, 0x00, 0x00, 0x02, 0x00, 0x00, 0x00,
  0x20, 0x00, 0x00, 0x00, 0x04, 0x00, 0x00, 0x00, 0xf4, 0xff, 0xff, 0xff,
  0x19, 0x00, 0x00, 0x00, 0x00, 0x00, 0x00, 0x19, 0x0c, 0x00, 0x0c, 0x00,
  0x0b, 0x00, 0x00, 0x00, 0x00, 0x00, 0x04, 0x00, 0x0c, 0x00, 0x00, 0x00,
  0x09, 0x00, 0x00, 0x00, 0x00, 0x00, 0x00, 0x09
};
const int h_model_len = 3296;
